TRT-9000-EntropyCalibration2
input_tensor_0: 3f810204
conv1_out_0: 40d02b32
scale_conv1_out_0: 3dfe5805
conv1_relu_out_0: 3dfe17b6
pool1_out_0: 3dfe17b6
res2a_branch2a_out_0: 3dacf872
res2a_branch1_out_0: 3e00476c
res2a_branch2a_relu_out_0: 3dbb6bb4
res2a_branch2b_out_0: 3da57085
res2a_branch2b_relu_out_0: 3d9a959e
res2a_branch2c_out_0: 3d8ce28a
res2a_out_0: 3ddabce6
res2a_relu_out_0: 3da631f6
res2b_branch2a_out_0: 3dcb9d4f
res2b_branch2a_relu_out_0: 3da9e0fb
res2b_branch2b_out_0: 3dc8ad83
res2b_branch2b_relu_out_0: 3dad7c96
res2b_branch2c_out_0: 3d814d36
res2b_out_0: 3dbace6d
res2b_relu_out_0: 3dba3ad9
res2c_branch2a_out_0: 3d9b7b43
res2c_branch2a_relu_out_0: 3d89c505
res2c_branch2b_out_0: 3d9c67bf
res2c_branch2b_relu_out_0: 3d8849e0
res2c_branch2c_out_0: 3d63d78d
res2c_out_0: 3da518cf
res2c_relu_out_0: 3d9cf7c6
res3a_branch2a_out_0: 3dcbb28b
res3a_branch1_out_0: 3dd0b4fd
res3a_branch2a_relu_out_0: 3da2e984
res3a_branch2b_out_0: 3db8cfe0
res3a_branch2b_relu_out_0: 3db8566d
res3a_branch2c_out_0: 3dd4394f
res3a_out_0: 3e027066
res3a_relu_out_0: 3e027066
res3b_branch2a_out_0: 3d6dbbf4
res3b_branch2a_relu_out_0: 3d6b47fe
res3b_branch2b_out_0: 3d8e34c5
res3b_branch2b_relu_out_0: 3d81b015
res3b_branch2c_out_0: 3da9b7e9
res3b_out_0: 3de3c067
res3b_relu_out_0: 3deda3f0
res3c_branch2a_out_0: 3d854172
res3c_branch2a_relu_out_0: 3d88dd22
res3c_branch2b_out_0: 3dae6ef1
res3c_branch2b_relu_out_0: 3d92d789
res3c_branch2c_out_0: 3d89981d
res3c_out_0: 3dcc6777
res3c_relu_out_0: 3df4955d
res3d_branch2a_out_0: 3d8f122a
res3d_branch2a_relu_out_0: 3d94b2a1
res3d_branch2b_out_0: 3db283a7
res3d_branch2b_relu_out_0: 3d95be57
res3d_branch2c_out_0: 3d8afe85
res3d_out_0: 3dd4cd03
res3d_relu_out_0: 3dda7ca5
res4a_branch2a_out_0: 3db035d2
res4a_branch1_out_0: 3da84129
res4a_branch2a_relu_out_0: 3db0ee0a
res4a_branch2b_out_0: 3db0d75e
res4a_branch2b_relu_out_0: 3d9c343e
res4a_branch2c_out_0: 3dbe4b92
res4a_out_0: 3e0416ab
res4a_relu_out_0: 3e10392b
res4b_branch2a_out_0: 3d863c7c
res4b_branch2a_relu_out_0: 3da7d295
res4b_branch2b_out_0: 3d9a5743
res4b_branch2b_relu_out_0: 3d66afd0
res4b_branch2c_out_0: 3d98994e
res4b_out_0: 3dd866ab
res4b_relu_out_0: 3def12b2
res4c_branch2a_out_0: 3d7fce98
res4c_branch2a_relu_out_0: 3d7f4417
res4c_branch2b_out_0: 3d9edd88
res4c_branch2b_relu_out_0: 3d9889cb
res4c_branch2c_out_0: 3d71712c
res4c_out_0: 3dd6fbb6
res4c_relu_out_0: 3ddb8de8
res4d_branch2a_out_0: 3d6ae779
res4d_branch2a_relu_out_0: 3d66f4cb
res4d_branch2b_out_0: 3d789461
res4d_branch2b_relu_out_0: 3d68b7c7
res4d_branch2c_out_0: 3d91e189
res4d_out_0: 3ddd2e36
res4d_relu_out_0: 3ddd2e36
res4e_branch2a_out_0: 3d7e19e6
res4e_branch2a_relu_out_0: 3d758a1a
res4e_branch2b_out_0: 3d766679
res4e_branch2b_relu_out_0: 3d5bac0f
res4e_branch2c_out_0: 3da5ebd1
res4e_out_0: 3ddca0e5
res4e_relu_out_0: 3ddca0e5
res4f_branch2a_out_0: 3d817c33
res4f_branch2a_relu_out_0: 3d723296
res4f_branch2b_out_0: 3d87c80c
res4f_branch2b_relu_out_0: 3d87c80c
res4f_branch2c_out_0: 3da56117
res4f_out_0: 3dd86206
res4f_relu_out_0: 3dd86206
res5a_branch1_out_0: 3dfd261a
res5a_branch2a_out_0: 3d968a95
res5a_branch2a_relu_out_0: 3d98e930
res5a_branch2b_out_0: 3d94cfb6
res5a_branch2b_relu_out_0: 3d896ca7
res5a_branch2c_out_0: 3e1b21aa
res5a_out_0: 3e626c0d
res5a_relu_out_0: 3e846c30
res5b_branch2a_out_0: 3d8eb8a3
res5b_branch2a_relu_out_0: 3d6bc0cb
res5b_branch2b_out_0: 3d93fdd6
res5b_branch2b_relu_out_0: 3d6c2d7c
res5b_branch2c_out_0: 3dcd0016
res5b_out_0: 3e4e0ff1
res5b_relu_out_0: 3e6cc228
res5c_branch2a_out_0: 3dad2075
res5c_branch2a_relu_out_0: 3d9fcc41
res5c_branch2b_out_0: 3db50528
res5c_branch2b_relu_out_0: 3d94cd45
res5c_branch2c_out_0: 3e1c8283
res5c_out_0: 3e899650
res5c_relu_out_0: 3eb45449
squeeze_replaced_out_0: 3eb45449
fc_replaced_out_0: 3e6e3531
topk_layer_output_value: 3e9be76e
